const unsigned char model[] = {
  0x1c, 0x00, 0x00, 0x00, 0x54, 0x46, 0x4c, 0x33, 0x14, 0x00, 0x20, 0x00,
  0x1c, 0x00, 0x18, 0x00, 0x14, 0x00, 0x10, 0x00, 0x0c, 0x00, 0x00, 0x00,
  0x08, 0x00, 0x04, 0x00, 0x14, 0x00, 0x00, 0x00, 0x1c, 0x00, 0x00, 0x00,
  0x90, 0x00, 0x00, 0x00, 0xe8, 0x00, 0x00, 0x00, 0x88, 0x05, 0x00, 0x00,
  0x98, 0x05, 0x00, 0x00, 0xd4, 0x0a, 0x00, 0x00, 0x03, 0x00, 0x00, 0x00,
  0x01, 0x00, 0x00, 0x00, 0x10, 0x00, 0x00, 0x00, 0x00, 0x00, 0x0a, 0x00,
  0x10, 0x00, 0x0c, 0x00, 0x08, 0x00, 0x04, 0x00, 0x0a, 0x00, 0x00, 0x00,
  0x0c, 0x00, 0x00, 0x00, 0x1c, 0x00, 0x00, 0x00, 0x3c, 0x00, 0x00, 0x00,
  0x0f, 0x00, 0x00, 0x00, 0x73, 0x65, 0x72, 0x76, 0x69, 0x6e, 0x67, 0x5f,
  0x64, 0x65, 0x66, 0x61, 0x75, 0x6c, 0x74, 0x00, 0x01, 0x00, 0x00, 0x00,
  0x04, 0x00, 0x00, 0x00, 0x98, 0xff, 0xff, 0xff, 0x09, 0x00, 0x00, 0x00,
  0x04, 0x00, 0x00, 0x00, 0x08, 0x00, 0x00, 0x00, 0x6f, 0x75, 0x74, 0x70,
  0x75, 0x74, 0x5f, 0x30, 0x00, 0x00, 0x00, 0x00, 0x01, 0x00, 0x00, 0x00,
  0x04, 0x00, 0x00, 0x00, 0x6e, 0xfa, 0xff, 0xff, 0x04, 0x00, 0x00, 0x00,
  0x05, 0x00, 0x00, 0x00, 0x69, 0x6e, 0x70, 0x75, 0x74, 0x00, 0x00, 0x00,
  0x02, 0x00, 0x00, 0x00, 0x34, 0x00, 0x00, 0x00, 0x04, 0x00, 0x00, 0x00,
  0xdc, 0xff, 0xff, 0xff, 0x0c, 0x00, 0x00, 0x00, 0x04, 0x00, 0x00, 0x00,
  0x13, 0x00, 0x00, 0x00, 0x43, 0x4f, 0x4e, 0x56, 0x45, 0x52, 0x53, 0x49,
  0x4f, 0x4e, 0x5f, 0x4d, 0x45, 0x54, 0x41, 0x44, 0x41, 0x54, 0x41, 0x00,
  0x08, 0x00, 0x0c, 0x00, 0x08, 0x00, 0x04, 0x00, 0x08, 0x00, 0x00, 0x00,
  0x0b, 0x00, 0x00, 0x00, 0x04, 0x00, 0x00, 0x00, 0x13, 0x00, 0x00, 0x00,
  0x6d, 0x69, 0x6e, 0x5f, 0x72, 0x75, 0x6e, 0x74, 0x69, 0x6d, 0x65, 0x5f,
  0x76, 0x65, 0x72, 0x73, 0x69, 0x6f, 0x6e, 0x00, 0x0d, 0x00, 0x00, 0x00,
  0x9c, 0x04, 0x00, 0x00, 0x94, 0x04, 0x00, 0x00, 0x04, 0x03, 0x00, 0x00,
  0x74, 0x01, 0x00, 0x00, 0xe4, 0x00, 0x00, 0x00, 0xc8, 0x00, 0x00, 0x00,
  0xb4, 0x00, 0x00, 0x00, 0xac, 0x00, 0x00, 0x00, 0xa4, 0x00, 0x00, 0x00,
  0x9c, 0x00, 0x00, 0x00, 0x94, 0x00, 0x00, 0x00, 0x74, 0x00, 0x00, 0x00,
  0x04, 0x00, 0x00, 0x00, 0x16, 0xfb, 0xff, 0xff, 0x04, 0x00, 0x00, 0x00,
  0x60, 0x00, 0x00, 0x00, 0x0c, 0x00, 0x00, 0x00, 0x08, 0x00, 0x0e, 0x00,
  0x08, 0x00, 0x04, 0x00, 0x08, 0x00, 0x00, 0x00, 0x10, 0x00, 0x00, 0x00,
  0x28, 0x00, 0x00, 0x00, 0x00, 0x00, 0x06, 0x00, 0x08, 0x00, 0x04, 0x00,
  0x06, 0x00, 0x00, 0x00, 0x04, 0x00, 0x00, 0x00, 0x01, 0x00, 0x00, 0x00,
  0xea, 0x03, 0x00, 0x00, 0x0c, 0x00, 0x18, 0x00, 0x14, 0x00, 0x10, 0x00,
  0x0c, 0x00, 0x04, 0x00, 0x0c, 0x00, 0x00, 0x00, 0x05, 0x24, 0x26, 0xe4,
  0x03, 0xa7, 0x20, 0x72, 0x02, 0x00, 0x00, 0x00, 0x02, 0x00, 0x00, 0x00,
  0x04, 0x00, 0x00, 0x00, 0x06, 0x00, 0x00, 0x00, 0x32, 0x2e, 0x31, 0x38,
  0x2e, 0x30, 0x00, 0x00, 0x82, 0xfb, 0xff, 0xff, 0x04, 0x00, 0x00, 0x00,
  0x10, 0x00, 0x00, 0x00, 0x31, 0x2e, 0x31, 0x31, 0x2e, 0x30, 0x00, 0x00,
  0x00, 0x00, 0x00, 0x00, 0x00, 0x00, 0x00, 0x00, 0xfc, 0xf6, 0xff, 0xff,
  0x00, 0xf7, 0xff, 0xff, 0x04, 0xf7, 0xff, 0xff, 0x08, 0xf7, 0xff, 0xff,
  0xae, 0xfb, 0xff, 0xff, 0x04, 0x00, 0x00, 0x00, 0x04, 0x00, 0x00, 0x00,
  0x01, 0x00, 0x00, 0x00, 0xbe, 0xfb, 0xff, 0xff, 0x04, 0x00, 0x00, 0x00,
  0x0c, 0x00, 0x00, 0x00, 0xa2, 0x5d, 0x97, 0xbe, 0x8a, 0x8b, 0xe6, 0xbe,
  0xa1, 0x0b, 0xcd, 0x3e, 0xd6, 0xfb, 0xff, 0xff, 0x04, 0x00, 0x00, 0x00,
  0x80, 0x00, 0x00, 0x00, 0x12, 0x3d, 0xf0, 0xbd, 0x2c, 0xaa, 0x90, 0xbe,
  0x7e, 0x9e, 0xd6, 0xbd, 0xd1, 0x1e, 0x23, 0x3f, 0x00, 0x00, 0x00, 0x00,
  0x36, 0x40, 0x2e, 0xbd, 0x53, 0x4c, 0xc6, 0x3e, 0x83, 0x5e, 0x8e, 0xbe,
  0x00, 0x00, 0x00, 0x00, 0xea, 0xd7, 0xe6, 0x3e, 0x52, 0xb8, 0xce, 0xbe,
  0x97, 0x27, 0x96, 0xbe, 0x63, 0xba, 0x14, 0x3f, 0x00, 0x00, 0x00, 0x00,
  0x82, 0x7c, 0x0e, 0xbf, 0x95, 0x71, 0x95, 0xbe, 0x26, 0xdc, 0xf5, 0xbc,
  0xa8, 0xbb, 0x0d, 0x3f, 0x67, 0x60, 0x20, 0xbd, 0x4b, 0xe6, 0x0e, 0xbf,
  0x06, 0x27, 0xf6, 0xbe, 0x95, 0x53, 0xda, 0x3e, 0x87, 0x5b, 0x31, 0xbe,
  0x92, 0xd7, 0xd4, 0x3e, 0x37, 0x0e, 0x0d, 0xbf, 0x87, 0xec, 0x56, 0x3f,
  0x00, 0x00, 0x00, 0x00, 0x10, 0xa4, 0x12, 0x3f, 0xbc, 0x04, 0x71, 0xbd,
  0x00, 0x00, 0x00, 0x00, 0x00, 0x00, 0x00, 0x00, 0x00, 0x00, 0x00, 0x00,
  0x62, 0xfc, 0xff, 0xff, 0x04, 0x00, 0x00, 0x00, 0x80, 0x01, 0x00, 0x00,
  0x7e, 0xbc, 0x0f, 0xbd, 0xd9, 0x44, 0x03, 0x3e, 0xf8, 0x70, 0x3b, 0xbe,
  0xd3, 0xeb, 0xf6, 0x3e, 0x6a, 0xf1, 0x9b, 0x3e, 0xef, 0x3c, 0xc8, 0x3e,
  0x89, 0xcc, 0x37, 0xbe, 0x45, 0x13, 0x29, 0x3d, 0x37, 0xea, 0x84, 0x3e,
  0x84, 0x11, 0xbe, 0xbe, 0xee, 0x9c, 0x6c, 0xbf, 0x6e, 0x20, 0x81, 0x3e,
  0x3a, 0x8f, 0x11, 0xbe, 0x84, 0xde, 0xdc, 0x3d, 0x20, 0x72, 0x8c, 0xbc,
  0x7e, 0x8d, 0xa6, 0xbe, 0x69, 0x96, 0xa1, 0x3e, 0xa8, 0xe5, 0xfe, 0x3c,
  0xf9, 0x14, 0x52, 0xbd, 0x63, 0x95, 0x03, 0x40, 0xd3, 0x8d, 0x2f, 0x3f,
  0x2d, 0x1b, 0x9f, 0x3e, 0x81, 0xf9, 0x3b, 0x3f, 0xa4, 0x1e, 0xe3, 0x3d,
  0x25, 0x3c, 0x7f, 0xbe, 0x44, 0x3a, 0xf9, 0xbd, 0xd4, 0xda, 0x8a, 0xbd,
  0x88, 0xba, 0x29, 0xbd, 0x19, 0x20, 0xb8, 0xbf, 0xdc, 0xa5, 0xdb, 0x3e,
  0x52, 0x36, 0x41, 0x3f, 0x3d, 0xe6, 0xc9, 0xbe, 0xd3, 0xb0, 0xcc, 0xbe,
  0x75, 0xa0, 0x13, 0x3f, 0xa1, 0xc1, 0xa3, 0x3e, 0x1c, 0x5d, 0x92, 0x3c,
  0x67, 0x06, 0x76, 0xbe, 0x2d, 0x56, 0x87, 0xbf, 0x95, 0xf2, 0x93, 0x3e,
  0xea, 0xd8, 0xb7, 0xbe, 0x16, 0x14, 0x57, 0x3e, 0x8b, 0x67, 0x69, 0xbe,
  0x65, 0xb4, 0x30, 0x3f, 0x2b, 0xee, 0x93, 0xbe, 0x6b, 0xd2, 0x43, 0x3e,
  0x45, 0x03, 0x07, 0x3f, 0x31, 0x2b, 0x37, 0x3f, 0x53, 0xdc, 0xb7, 0xbd,
  0x6d, 0x0f, 0x67, 0xbe, 0x7e, 0x44, 0x6b, 0x3e, 0xa4, 0x49, 0x30, 0x3c,
  0x96, 0x86, 0x4d, 0xbe, 0x97, 0x73, 0x91, 0xbf, 0xf3, 0x85, 0x9a, 0x3e,
  0x0b, 0x74, 0x9b, 0xbd, 0xc1, 0x98, 0xad, 0x3d, 0x9b, 0xb8, 0x0f, 0xbe,
  0x66, 0xcd, 0x39, 0x3f, 0x60, 0x19, 0x04, 0xbf, 0x8a, 0xf6, 0x94, 0x3e,
  0x57, 0x75, 0x51, 0x3f, 0x41, 0xfb, 0x1a, 0xbf, 0x58, 0x06, 0x9d, 0x3d,
  0xcd, 0x2b, 0x56, 0x3d, 0xa0, 0x27, 0x62, 0xbf, 0x3f, 0x01, 0x3d, 0xbf,
  0xf6, 0xb5, 0x3a, 0xbd, 0x4f, 0x82, 0x78, 0x3d, 0x22, 0xf1, 0x8e, 0x3e,
  0x97, 0xbd, 0xba, 0x3c, 0xa7, 0x85, 0x5c, 0xbf, 0x63, 0x62, 0xd8, 0xbe,
  0x2e, 0x9e, 0x3c, 0x3f, 0xfc, 0x85, 0xd8, 0xbe, 0x48, 0xac, 0xd4, 0x3c,
  0xd0, 0xa8, 0xa2, 0xbe, 0x90, 0x0e, 0x8b, 0x3f, 0x06, 0xa9, 0xf2, 0x3e,
  0xab, 0x4b, 0x9f, 0xbe, 0x40, 0x86, 0xa8, 0xbc, 0xb0, 0xc2, 0x72, 0x3d,
  0xe8, 0x3c, 0x8f, 0xbe, 0xbc, 0xf8, 0x64, 0xbf, 0x60, 0x66, 0x44, 0x3e,
  0x7b, 0x08, 0x8f, 0xbe, 0xf5, 0xca, 0x48, 0xbe, 0x25, 0x58, 0x82, 0x3e,
  0x76, 0x0c, 0x8d, 0xbe, 0xf4, 0xe5, 0xa1, 0xbd, 0x72, 0x5c, 0x10, 0x3e,
  0x85, 0xb4, 0x5e, 0xbe, 0x20, 0x09, 0x6b, 0x3d, 0x74, 0xeb, 0x82, 0xbd,
  0x7f, 0xac, 0xce, 0xbe, 0xf0, 0xab, 0xd2, 0xbc, 0x4f, 0x18, 0x8c, 0x3e,
  0xee, 0xfd, 0xff, 0xff, 0x04, 0x00, 0x00, 0x00, 0x80, 0x01, 0x00, 0x00,
  0xf8, 0x84, 0x0d, 0xbe, 0x3b, 0x2b, 0x17, 0x3f, 0x31, 0x80, 0x0f, 0xbe,
  0x94, 0x54, 0x2d, 0xbf, 0xb8, 0x6d, 0x2e, 0x3d, 0x4b, 0x69, 0x01, 0x3e,
  0x11, 0xe7, 0x86, 0x3d, 0x8e, 0xcf, 0x1a, 0x3f, 0xa8, 0x94, 0x0f, 0xbe,
  0x2d, 0x39, 0x83, 0xbf, 0xa4, 0x13, 0x61, 0xbd, 0x69, 0x9d, 0x45, 0x3f,
  0x8f, 0x04, 0x0b, 0xbf, 0xf6, 0x3e, 0x3f, 0x3e, 0x0e, 0x54, 0xc4, 0x3e,
  0x90, 0x38, 0x4d, 0x3f, 0xbf, 0x05, 0xc4, 0x3e, 0x22, 0x8b, 0x6b, 0xbf,
  0x46, 0xb6, 0x3f, 0x3d, 0xc3, 0x26, 0x17, 0x3f, 0xd7, 0x2b, 0x58, 0x3e,
  0x30, 0x13, 0x22, 0xbf, 0x9e, 0x43, 0x57, 0x3f, 0x14, 0xe3, 0x7c, 0xbe,
  0xff, 0x83, 0x45, 0x3f, 0x95, 0xf5, 0x7c, 0xbe, 0xfa, 0x61, 0x0a, 0x3e,
  0xc7, 0x2f, 0x40, 0xbf, 0x46, 0x76, 0x01, 0x3e, 0xcd, 0xea, 0xaa, 0x3e,
  0x80, 0x23, 0x7b, 0x3d, 0x56, 0x21, 0x5c, 0x3e, 0xa9, 0x66, 0x3b, 0x3e,
  0xec, 0x7a, 0xcb, 0xbe, 0x54, 0x9d, 0x75, 0x3e, 0x1d, 0xc4, 0x1d, 0xbf,
  0xf0, 0xa8, 0x89, 0x3c, 0x9b, 0x5a, 0x71, 0xbd, 0x0b, 0x6b, 0xb4, 0xbf,
  0x8f, 0x68, 0x92, 0xbf, 0xf3, 0xb4, 0xaa, 0x3e, 0xca, 0x99, 0xc5, 0x3e,
  0xab, 0xcf, 0x5c, 0x3f, 0x4a, 0x5f, 0x73, 0x3c, 0x3a, 0xa4, 0x54, 0xbe,
  0x18, 0xa6, 0x07, 0x3d, 0x27, 0x22, 0x29, 0x3f, 0xe3, 0xe7, 0xa4, 0xbe,
  0x1c, 0x2a, 0xb1, 0xbe, 0x79, 0x63, 0x6f, 0xbe, 0xee, 0x98, 0xb5, 0x3e,
  0x95, 0xc5, 0x9c, 0x3f, 0xf6, 0x68, 0xb5, 0x3f, 0xf1, 0x13, 0x12, 0x3f,
  0x8a, 0x86, 0x3c, 0xbc, 0xfa, 0xa7, 0xb3, 0x3e, 0xc0, 0xe2, 0xc2, 0x3f,
  0x8e, 0x82, 0xc7, 0xbf, 0xfd, 0x6c, 0xa9, 0xbe, 0x0d, 0x5e, 0x02, 0xbf,
  0x7f, 0xd9, 0x08, 0x3e, 0x50, 0x76, 0x5d, 0x3d, 0x30, 0x50, 0xa2, 0xbe,
  0x62, 0xd9, 0x41, 0xbe, 0xb2, 0xe1, 0x41, 0xbe, 0x00, 0xfa, 0x01, 0xbf,
  0xdc, 0xee, 0x94, 0xbe, 0x8e, 0xe7, 0x9b, 0x3f, 0x62, 0x93, 0x1c, 0xbe,
  0x8e, 0xb8, 0x8c, 0x3a, 0x82, 0x46, 0x4d, 0x3f, 0x74, 0xd6, 0x38, 0xbe,
  0xdc, 0x8f, 0x84, 0xbd, 0x2d, 0xcd, 0x1f, 0x3f, 0xfa, 0xe4, 0x1b, 0xbf,
  0xe0, 0x1f, 0x76, 0xbf, 0xdd, 0xff, 0x5b, 0x3f, 0x64, 0x88, 0xf0, 0xbd,
  0xde, 0xf0, 0x6b, 0xbf, 0x6b, 0x0f, 0xb6, 0xbe, 0xf1, 0x98, 0xe4, 0xbd,
  0x31, 0x3c, 0x4e, 0x3f, 0xe3, 0x98, 0x38, 0xbd, 0xd5, 0x22, 0x2c, 0xbf,
  0x94, 0xb1, 0x9d, 0xbf, 0x22, 0x55, 0x60, 0x3f, 0x20, 0x0c, 0xdc, 0xbd,
  0xea, 0x57, 0x24, 0x3f, 0xdb, 0x67, 0x72, 0xbf, 0xea, 0x61, 0xb3, 0x3f,
  0x63, 0x3b, 0xc9, 0x3e, 0xc4, 0xaa, 0x83, 0x3f, 0x80, 0x3d, 0x3a, 0x3e,
  0x4e, 0xc2, 0x3c, 0x3e, 0x45, 0x28, 0x36, 0xbe, 0x6b, 0x6c, 0xbb, 0x3e,
  0xd8, 0xfa, 0xff, 0xff, 0xdc, 0xfa, 0xff, 0xff, 0x0f, 0x00, 0x00, 0x00,
  0x4d, 0x4c, 0x49, 0x52, 0x20, 0x43, 0x6f, 0x6e, 0x76, 0x65, 0x72, 0x74,
  0x65, 0x64, 0x2e, 0x00, 0x01, 0x00, 0x00, 0x00, 0x14, 0x00, 0x00, 0x00,
  0x00, 0x00, 0x0e, 0x00, 0x18, 0x00, 0x14, 0x00, 0x10, 0x00, 0x0c, 0x00,
  0x08, 0x00, 0x04, 0x00, 0x0e, 0x00, 0x00, 0x00, 0x14, 0x00, 0x00, 0x00,
  0x1c, 0x00, 0x00, 0x00, 0x24, 0x01, 0x00, 0x00, 0x28, 0x01, 0x00, 0x00,
  0x2c, 0x01, 0x00, 0x00, 0x04, 0x00, 0x00, 0x00, 0x6d, 0x61, 0x69, 0x6e,
  0x00, 0x00, 0x00, 0x00, 0x04, 0x00, 0x00, 0x00, 0xdc, 0x00, 0x00, 0x00,
  0x88, 0x00, 0x00, 0x00, 0x40, 0x00, 0x00, 0x00, 0x04, 0x00, 0x00, 0x00,
  0x92, 0xff, 0xff, 0xff, 0x1c, 0x00, 0x00, 0x00, 0x00, 0x00, 0x00, 0x09,
  0x1c, 0x00, 0x00, 0x00, 0x20, 0x00, 0x00, 0x00, 0x02, 0x00, 0x00, 0x00,
  0x00, 0x00, 0x06, 0x00, 0x08, 0x00, 0x04, 0x00, 0x06, 0x00, 0x00, 0x00,
  0x00, 0x00, 0x80, 0x3f, 0x01, 0x00, 0x00, 0x00, 0x09, 0x00, 0x00, 0x00,
  0x01, 0x00, 0x00, 0x00, 0x08, 0x00, 0x00, 0x00, 0xca, 0xff, 0xff, 0xff,
  0x14, 0x00, 0x00, 0x00, 0x00, 0x00, 0x00, 0x08, 0x10, 0x00, 0x00, 0x00,
  0x14, 0x00, 0x00, 0x00, 0x01, 0x00, 0x00, 0x00, 0x94, 0xfb, 0xff, 0xff,
  0x01, 0x00, 0x00, 0x00, 0x08, 0x00, 0x00, 0x00, 0x03, 0x00, 0x00, 0x00,
  0x07, 0x00, 0x00, 0x00, 0x01, 0x00, 0x00, 0x00, 0x04, 0x00, 0x00, 0x00,
  0x00, 0x00, 0x0e, 0x00, 0x1a, 0x00, 0x14, 0x00, 0x10, 0x00, 0x0c, 0x00,
  0x0b, 0x00, 0x04, 0x00, 0x0e, 0x00, 0x00, 0x00, 0x1c, 0x00, 0x00, 0x00,
  0x00, 0x00, 0x00, 0x08, 0x1c, 0x00, 0x00, 0x00, 0x20, 0x00, 0x00, 0x00,
  0x01, 0x00, 0x00, 0x00, 0x00, 0x00, 0x06, 0x00, 0x08, 0x00, 0x07, 0x00,
  0x06, 0x00, 0x00, 0x00, 0x00, 0x00, 0x00, 0x01, 0x01, 0x00, 0x00, 0x00,
  0x07, 0x00, 0x00, 0x00, 0x03, 0x00, 0x00, 0x00, 0x06, 0x00, 0x00, 0x00,
  0x02, 0x00, 0x00, 0x00, 0x03, 0x00, 0x00, 0x00, 0x00, 0x00, 0x0e, 0x00,
  0x14, 0x00, 0x00, 0x00, 0x10, 0x00, 0x0c, 0x00, 0x0b, 0x00, 0x04, 0x00,
  0x0e, 0x00, 0x00, 0x00, 0x10, 0x00, 0x00, 0x00, 0x00, 0x00, 0x00, 0x1b,
  0x0c, 0x00, 0x00, 0x00, 0x10, 0x00, 0x00, 0x00, 0x24, 0xfc, 0xff, 0xff,
  0x01, 0x00, 0x00, 0x00, 0x06, 0x00, 0x00, 0x00, 0x02, 0x00, 0x00, 0x00,
  0x00, 0x00, 0x00, 0x00, 0x05, 0x00, 0x00, 0x00, 0x01, 0x00, 0x00, 0x00,
  0x09, 0x00, 0x00, 0x00, 0x01, 0x00, 0x00, 0x00, 0x00, 0x00, 0x00, 0x00,
  0x0a, 0x00, 0x00, 0x00, 0x84, 0x03, 0x00, 0x00, 0x2c, 0x03, 0x00, 0x00,
  0xd4, 0x02, 0x00, 0x00, 0x98, 0x02, 0x00, 0x00, 0x5c, 0x02, 0x00, 0x00,
  0xf4, 0x01, 0x00, 0x00, 0x74, 0x01, 0x00, 0x00, 0xe0, 0x00, 0x00, 0x00,
  0x60, 0x00, 0x00, 0x00, 0x04, 0x00, 0x00, 0x00, 0xba, 0xfc, 0xff, 0xff,
  0x00, 0x00, 0x00, 0x01, 0x14, 0x00, 0x00, 0x00, 0x1c, 0x00, 0x00, 0x00,
  0x1c, 0x00, 0x00, 0x00, 0x0a, 0x00, 0x00, 0x00, 0x34, 0x00, 0x00, 0x00,
  0x02, 0x00, 0x00, 0x00, 0xff, 0xff, 0xff, 0xff, 0x03, 0x00, 0x00, 0x00,
  0xa0, 0xfc, 0xff, 0xff, 0x1b, 0x00, 0x00, 0x00, 0x53, 0x74, 0x61, 0x74,
  0x65, 0x66, 0x75, 0x6c, 0x50, 0x61, 0x72, 0x74, 0x69, 0x74, 0x69, 0x6f,
  0x6e, 0x65, 0x64, 0x43, 0x61, 0x6c, 0x6c, 0x5f, 0x31, 0x3a, 0x30, 0x00,
  0x02, 0x00, 0x00, 0x00, 0x01, 0x00, 0x00, 0x00, 0x03, 0x00, 0x00, 0x00,
  0x12, 0xfd, 0xff, 0xff, 0x00, 0x00, 0x00, 0x01, 0x14, 0x00, 0x00, 0x00,
  0x1c, 0x00, 0x00, 0x00, 0x1c, 0x00, 0x00, 0x00, 0x09, 0x00, 0x00, 0x00,
  0x58, 0x00, 0x00, 0x00, 0x02, 0x00, 0x00, 0x00, 0xff, 0xff, 0xff, 0xff,
  0x03, 0x00, 0x00, 0x00, 0xf8, 0xfc, 0xff, 0xff, 0x3c, 0x00, 0x00, 0x00,
  0x73, 0x65, 0x71, 0x75, 0x65, 0x6e, 0x74, 0x69, 0x61, 0x6c, 0x5f, 0x31,
  0x2f, 0x64, 0x65, 0x6e, 0x73, 0x65, 0x5f, 0x31, 0x5f, 0x32, 0x2f, 0x4d,
  0x61, 0x74, 0x4d, 0x75, 0x6c, 0x3b, 0x73, 0x65, 0x71, 0x75, 0x65, 0x6e,
  0x74, 0x69, 0x61, 0x6c, 0x5f, 0x31, 0x2f, 0x64, 0x65, 0x6e, 0x73, 0x65,
  0x5f, 0x31, 0x5f, 0x32, 0x2f, 0x42, 0x69, 0x61, 0x73, 0x41, 0x64, 0x64,
  0x00, 0x00, 0x00, 0x00, 0x02, 0x00, 0x00, 0x00, 0x01, 0x00, 0x00, 0x00,
  0x03, 0x00, 0x00, 0x00, 0x8e, 0xfd, 0xff, 0xff, 0x00, 0x00, 0x00, 0x01,
  0x14, 0x00, 0x00, 0x00, 0x1c, 0x00, 0x00, 0x00, 0x1c, 0x00, 0x00, 0x00,
  0x08, 0x00, 0x00, 0x00, 0x6c, 0x00, 0x00, 0x00, 0x02, 0x00, 0x00, 0x00,
  0xff, 0xff, 0xff, 0xff, 0x20, 0x00, 0x00, 0x00, 0x74, 0xfd, 0xff, 0xff,
  0x52, 0x00, 0x00, 0x00, 0x73, 0x65, 0x71, 0x75, 0x65, 0x6e, 0x74, 0x69,
  0x61, 0x6c, 0x5f, 0x31, 0x2f, 0x64, 0x65, 0x6e, 0x73, 0x65, 0x5f, 0x31,
  0x2f, 0x4d, 0x61, 0x74, 0x4d, 0x75, 0x6c, 0x3b, 0x73, 0x65, 0x71, 0x75,
  0x65, 0x6e, 0x74, 0x69, 0x61, 0x6c, 0x5f, 0x31, 0x2f, 0x64, 0x65, 0x6e,
  0x73, 0x65, 0x5f, 0x31, 0x2f, 0x52, 0x65, 0x6c, 0x75, 0x3b, 0x73, 0x65,
  0x71, 0x75, 0x65, 0x6e, 0x74, 0x69, 0x61, 0x6c, 0x5f, 0x31, 0x2f, 0x64,
  0x65, 0x6e, 0x73, 0x65, 0x5f, 0x31, 0x2f, 0x42, 0x69, 0x61, 0x73, 0x41,
  0x64, 0x64, 0x00, 0x00, 0x02, 0x00, 0x00, 0x00, 0x01, 0x00, 0x00, 0x00,
  0x20, 0x00, 0x00, 0x00, 0x1e, 0xfe, 0xff, 0xff, 0x00, 0x00, 0x00, 0x01,
  0x14, 0x00, 0x00, 0x00, 0x1c, 0x00, 0x00, 0x00, 0x1c, 0x00, 0x00, 0x00,
  0x07, 0x00, 0x00, 0x00, 0x40, 0x00, 0x00, 0x00, 0x02, 0x00, 0x00, 0x00,
  0xff, 0xff, 0xff, 0xff, 0x03, 0x00, 0x00, 0x00, 0x04, 0xfe, 0xff, 0xff,
  0x27, 0x00, 0x00, 0x00, 0x73, 0x65, 0x71, 0x75, 0x65, 0x6e, 0x74, 0x69,
  0x61, 0x6c, 0x5f, 0x31, 0x2f, 0x67, 0x6c, 0x6f, 0x62, 0x61, 0x6c, 0x5f,
  0x6d, 0x61, 0x78, 0x5f, 0x70, 0x6f, 0x6f, 0x6c, 0x69, 0x6e, 0x67, 0x31,
  0x64, 0x5f, 0x31, 0x2f, 0x4d, 0x61, 0x78, 0x00, 0x02, 0x00, 0x00, 0x00,
  0x01, 0x00, 0x00, 0x00, 0x03, 0x00, 0x00, 0x00, 0x00, 0x00, 0x16, 0x00,
  0x1c, 0x00, 0x18, 0x00, 0x17, 0x00, 0x10, 0x00, 0x0c, 0x00, 0x08, 0x00,
  0x00, 0x00, 0x00, 0x00, 0x00, 0x00, 0x07, 0x00, 0x16, 0x00, 0x00, 0x00,
  0x00, 0x00, 0x00, 0x01, 0x14, 0x00, 0x00, 0x00, 0x14, 0x00, 0x00, 0x00,
  0x06, 0x00, 0x00, 0x00, 0x00, 0x00, 0x00, 0x02, 0x48, 0x00, 0x00, 0x00,
  0x74, 0xfe, 0xff, 0xff, 0x39, 0x00, 0x00, 0x00, 0x73, 0x65, 0x71, 0x75,
  0x65, 0x6e, 0x74, 0x69, 0x61, 0x6c, 0x5f, 0x31, 0x2f, 0x67, 0x6c, 0x6f,
  0x62, 0x61, 0x6c, 0x5f, 0x6d, 0x61, 0x78, 0x5f, 0x70, 0x6f, 0x6f, 0x6c,
  0x69, 0x6e, 0x67, 0x31, 0x64, 0x5f, 0x31, 0x2f, 0x4d, 0x61, 0x78, 0x2f,
  0x72, 0x65, 0x64, 0x75, 0x63, 0x74, 0x69, 0x6f, 0x6e, 0x5f, 0x69, 0x6e,
  0x64, 0x69, 0x63, 0x65, 0x73, 0x00, 0x00, 0x00, 0x00, 0x00, 0x00, 0x00,
  0x52, 0xff, 0xff, 0xff, 0x00, 0x00, 0x00, 0x01, 0x10, 0x00, 0x00, 0x00,
  0x10, 0x00, 0x00, 0x00, 0x05, 0x00, 0x00, 0x00, 0x1c, 0x00, 0x00, 0x00,
  0xd4, 0xfe, 0xff, 0xff, 0x0f, 0x00, 0x00, 0x00, 0x61, 0x72, 0x69, 0x74,
  0x68, 0x2e, 0x63, 0x6f, 0x6e, 0x73, 0x74, 0x61, 0x6e, 0x74, 0x33, 0x00,
  0x01, 0x00, 0x00, 0x00, 0x03, 0x00, 0x00, 0x00, 0x8a, 0xff, 0xff, 0xff,
  0x00, 0x00, 0x00, 0x01, 0x10, 0x00, 0x00, 0x00, 0x10, 0x00, 0x00, 0x00,
  0x04, 0x00, 0x00, 0x00, 0x1c, 0x00, 0x00, 0x00, 0x0c, 0xff, 0xff, 0xff,
  0x0f, 0x00, 0x00, 0x00, 0x61, 0x72, 0x69, 0x74, 0x68, 0x2e, 0x63, 0x6f,
  0x6e, 0x73, 0x74, 0x61, 0x6e, 0x74, 0x32, 0x00, 0x01, 0x00, 0x00, 0x00,
  0x20, 0x00, 0x00, 0x00, 0xc2, 0xff, 0xff, 0xff, 0x00, 0x00, 0x00, 0x01,
  0x10, 0x00, 0x00, 0x00, 0x10, 0x00, 0x00, 0x00, 0x03, 0x00, 0x00, 0x00,
  0x1c, 0x00, 0x00, 0x00, 0x44, 0xff, 0xff, 0xff, 0x0f, 0x00, 0x00, 0x00,
  0x61, 0x72, 0x69, 0x74, 0x68, 0x2e, 0x63, 0x6f, 0x6e, 0x73, 0x74, 0x61,
  0x6e, 0x74, 0x31, 0x00, 0x02, 0x00, 0x00, 0x00, 0x20, 0x00, 0x00, 0x00,
  0x03, 0x00, 0x00, 0x00, 0x00, 0x00, 0x16, 0x00, 0x18, 0x00, 0x14, 0x00,
  0x00, 0x00, 0x10, 0x00, 0x0c, 0x00, 0x08, 0x00, 0x00, 0x00, 0x00, 0x00,
  0x00, 0x00, 0x07, 0x00, 0x16, 0x00, 0x00, 0x00, 0x00, 0x00, 0x00, 0x01,
  0x10, 0x00, 0x00, 0x00, 0x10, 0x00, 0x00, 0x00, 0x02, 0x00, 0x00, 0x00,
  0x1c, 0x00, 0x00, 0x00, 0x98, 0xff, 0xff, 0xff, 0x0e, 0x00, 0x00, 0x00,
  0x61, 0x72, 0x69, 0x74, 0x68, 0x2e, 0x63, 0x6f, 0x6e, 0x73, 0x74, 0x61,
  0x6e, 0x74, 0x00, 0x00, 0x02, 0x00, 0x00, 0x00, 0x03, 0x00, 0x00, 0x00,
  0x20, 0x00, 0x00, 0x00, 0x00, 0x00, 0x16, 0x00, 0x1c, 0x00, 0x18, 0x00,
  0x00, 0x00, 0x14, 0x00, 0x10, 0x00, 0x0c, 0x00, 0x00, 0x00, 0x00, 0x00,
  0x08, 0x00, 0x07, 0x00, 0x16, 0x00, 0x00, 0x00, 0x00, 0x00, 0x00, 0x01,
  0x14, 0x00, 0x00, 0x00, 0x24, 0x00, 0x00, 0x00, 0x24, 0x00, 0x00, 0x00,
  0x01, 0x00, 0x00, 0x00, 0x38, 0x00, 0x00, 0x00, 0x03, 0x00, 0x00, 0x00,
  0xff, 0xff, 0xff, 0xff, 0x64, 0x00, 0x00, 0x00, 0x03, 0x00, 0x00, 0x00,
  0x04, 0x00, 0x04, 0x00, 0x04, 0x00, 0x00, 0x00, 0x17, 0x00, 0x00, 0x00,
  0x73, 0x65, 0x72, 0x76, 0x69, 0x6e, 0x67, 0x5f, 0x64, 0x65, 0x66, 0x61,
  0x75, 0x6c, 0x74, 0x5f, 0x69, 0x6e, 0x70, 0x75, 0x74, 0x3a, 0x30, 0x00,
  0x03, 0x00, 0x00, 0x00, 0x01, 0x00, 0x00, 0x00, 0x64, 0x00, 0x00, 0x00,
  0x03, 0x00, 0x00, 0x00, 0x03, 0x00, 0x00, 0x00, 0x30, 0x00, 0x00, 0x00,
  0x14, 0x00, 0x00, 0x00, 0x04, 0x00, 0x00, 0x00, 0xe8, 0xff, 0xff, 0xff,
  0x19, 0x00, 0x00, 0x00, 0x00, 0x00, 0x00, 0x19, 0xf4, 0xff, 0xff, 0xff,
  0x09, 0x00, 0x00, 0x00, 0x00, 0x00, 0x00, 0x09, 0x0c, 0x00, 0x0c, 0x00,
  0x0b, 0x00, 0x00, 0x00, 0x00, 0x00, 0x04, 0x00, 0x0c, 0x00, 0x00, 0x00,
  0x52, 0x00, 0x00, 0x00, 0x00, 0x00, 0x00, 0x52
};
