const unsigned char model[] = {
  0x1c, 0x00, 0x00, 0x00, 0x54, 0x46, 0x4c, 0x33, 0x14, 0x00, 0x20, 0x00,
  0x1c, 0x00, 0x18, 0x00, 0x14, 0x00, 0x10, 0x00, 0x0c, 0x00, 0x00, 0x00,
  0x08, 0x00, 0x04, 0x00, 0x14, 0x00, 0x00, 0x00, 0x1c, 0x00, 0x00, 0x00,
  0x90, 0x00, 0x00, 0x00, 0xe8, 0x00, 0x00, 0x00, 0x88, 0x05, 0x00, 0x00,
  0x98, 0x05, 0x00, 0x00, 0xec, 0x0a, 0x00, 0x00, 0x03, 0x00, 0x00, 0x00,
  0x01, 0x00, 0x00, 0x00, 0x10, 0x00, 0x00, 0x00, 0x00, 0x00, 0x0a, 0x00,
  0x10, 0x00, 0x0c, 0x00, 0x08, 0x00, 0x04, 0x00, 0x0a, 0x00, 0x00, 0x00,
  0x0c, 0x00, 0x00, 0x00, 0x1c, 0x00, 0x00, 0x00, 0x3c, 0x00, 0x00, 0x00,
  0x0f, 0x00, 0x00, 0x00, 0x73, 0x65, 0x72, 0x76, 0x69, 0x6e, 0x67, 0x5f,
  0x64, 0x65, 0x66, 0x61, 0x75, 0x6c, 0x74, 0x00, 0x01, 0x00, 0x00, 0x00,
  0x04, 0x00, 0x00, 0x00, 0x98, 0xff, 0xff, 0xff, 0x09, 0x00, 0x00, 0x00,
  0x04, 0x00, 0x00, 0x00, 0x08, 0x00, 0x00, 0x00, 0x6f, 0x75, 0x74, 0x70,
  0x75, 0x74, 0x5f, 0x30, 0x00, 0x00, 0x00, 0x00, 0x01, 0x00, 0x00, 0x00,
  0x04, 0x00, 0x00, 0x00, 0x6e, 0xfa, 0xff, 0xff, 0x04, 0x00, 0x00, 0x00,
  0x05, 0x00, 0x00, 0x00, 0x69, 0x6e, 0x70, 0x75, 0x74, 0x00, 0x00, 0x00,
  0x02, 0x00, 0x00, 0x00, 0x34, 0x00, 0x00, 0x00, 0x04, 0x00, 0x00, 0x00,
  0xdc, 0xff, 0xff, 0xff, 0x0c, 0x00, 0x00, 0x00, 0x04, 0x00, 0x00, 0x00,
  0x13, 0x00, 0x00, 0x00, 0x43, 0x4f, 0x4e, 0x56, 0x45, 0x52, 0x53, 0x49,
  0x4f, 0x4e, 0x5f, 0x4d, 0x45, 0x54, 0x41, 0x44, 0x41, 0x54, 0x41, 0x00,
  0x08, 0x00, 0x0c, 0x00, 0x08, 0x00, 0x04, 0x00, 0x08, 0x00, 0x00, 0x00,
  0x0b, 0x00, 0x00, 0x00, 0x04, 0x00, 0x00, 0x00, 0x13, 0x00, 0x00, 0x00,
  0x6d, 0x69, 0x6e, 0x5f, 0x72, 0x75, 0x6e, 0x74, 0x69, 0x6d, 0x65, 0x5f,
  0x76, 0x65, 0x72, 0x73, 0x69, 0x6f, 0x6e, 0x00, 0x0d, 0x00, 0x00, 0x00,
  0x9c, 0x04, 0x00, 0x00, 0x94, 0x04, 0x00, 0x00, 0x04, 0x03, 0x00, 0x00,
  0x74, 0x01, 0x00, 0x00, 0x58, 0x01, 0x00, 0x00, 0xc8, 0x00, 0x00, 0x00,
  0xb4, 0x00, 0x00, 0x00, 0xac, 0x00, 0x00, 0x00, 0xa4, 0x00, 0x00, 0x00,
  0x9c, 0x00, 0x00, 0x00, 0x94, 0x00, 0x00, 0x00, 0x74, 0x00, 0x00, 0x00,
  0x04, 0x00, 0x00, 0x00, 0x16, 0xfb, 0xff, 0xff, 0x04, 0x00, 0x00, 0x00,
  0x60, 0x00, 0x00, 0x00, 0x0c, 0x00, 0x00, 0x00, 0x08, 0x00, 0x0e, 0x00,
  0x08, 0x00, 0x04, 0x00, 0x08, 0x00, 0x00, 0x00, 0x10, 0x00, 0x00, 0x00,
  0x28, 0x00, 0x00, 0x00, 0x00, 0x00, 0x06, 0x00, 0x08, 0x00, 0x04, 0x00,
  0x06, 0x00, 0x00, 0x00, 0x04, 0x00, 0x00, 0x00, 0x01, 0x00, 0x00, 0x00,
  0xea, 0x03, 0x00, 0x00, 0x0c, 0x00, 0x18, 0x00, 0x14, 0x00, 0x10, 0x00,
  0x0c, 0x00, 0x04, 0x00, 0x0c, 0x00, 0x00, 0x00, 0x0e, 0x6d, 0xc1, 0x44,
  0xba, 0x6a, 0x00, 0x36, 0x02, 0x00, 0x00, 0x00, 0x02, 0x00, 0x00, 0x00,
  0x04, 0x00, 0x00, 0x00, 0x06, 0x00, 0x00, 0x00, 0x32, 0x2e, 0x31, 0x38,
  0x2e, 0x30, 0x00, 0x00, 0x82, 0xfb, 0xff, 0xff, 0x04, 0x00, 0x00, 0x00,
  0x10, 0x00, 0x00, 0x00, 0x31, 0x2e, 0x31, 0x31, 0x2e, 0x30, 0x00, 0x00,
  0x00, 0x00, 0x00, 0x00, 0x00, 0x00, 0x00, 0x00, 0xe4, 0xf6, 0xff, 0xff,
  0xe8, 0xf6, 0xff, 0xff, 0xec, 0xf6, 0xff, 0xff, 0xf0, 0xf6, 0xff, 0xff,
  0xae, 0xfb, 0xff, 0xff, 0x04, 0x00, 0x00, 0x00, 0x04, 0x00, 0x00, 0x00,
  0x01, 0x00, 0x00, 0x00, 0xbe, 0xfb, 0xff, 0xff, 0x04, 0x00, 0x00, 0x00,
  0x80, 0x00, 0x00, 0x00, 0xea, 0x65, 0x9f, 0x3d, 0x8c, 0x6e, 0x8c, 0x3e,
  0x06, 0xe2, 0x4a, 0xbe, 0xf9, 0xe2, 0x43, 0x3e, 0xe6, 0x07, 0x81, 0xbe,
  0x4d, 0x21, 0x71, 0xbe, 0x99, 0xf6, 0x13, 0xbd, 0x7f, 0xd1, 0x81, 0xbe,
  0x80, 0x04, 0x92, 0x3e, 0x19, 0xd9, 0x81, 0xbe, 0xd9, 0x51, 0x5d, 0x3e,
  0x56, 0x30, 0x2e, 0x3e, 0x39, 0xd8, 0x18, 0xbe, 0x05, 0x78, 0x6c, 0xbd,
  0x27, 0xeb, 0x69, 0xbe, 0x68, 0x88, 0x91, 0x3d, 0x0e, 0x3c, 0x5f, 0xbe,
  0xe6, 0x67, 0xa5, 0x3e, 0x63, 0x25, 0xab, 0x3e, 0x8a, 0xc5, 0xa4, 0xbd,
  0x06, 0x1b, 0x84, 0x3e, 0xc7, 0x01, 0x59, 0xbe, 0x34, 0xf0, 0x96, 0x3e,
  0x55, 0xb2, 0x84, 0x3e, 0xd7, 0x05, 0x77, 0x3d, 0xe4, 0x6c, 0xa0, 0xbe,
  0xda, 0x51, 0x5f, 0xbe, 0x49, 0xa8, 0x35, 0x3e, 0x01, 0x7b, 0x85, 0x3e,
  0x27, 0x6f, 0xd8, 0xbd, 0x07, 0x20, 0x38, 0x3e, 0x98, 0x20, 0xae, 0x3e,
  0x4a, 0xfc, 0xff, 0xff, 0x04, 0x00, 0x00, 0x00, 0x0c, 0x00, 0x00, 0x00,
  0x4a, 0x45, 0x83, 0xbe, 0x54, 0x9f, 0x91, 0x3e, 0x41, 0xf3, 0x26, 0x3e,
  0x62, 0xfc, 0xff, 0xff, 0x04, 0x00, 0x00, 0x00, 0x80, 0x01, 0x00, 0x00,
  0x5f, 0xf5, 0x73, 0xbe, 0x0e, 0x66, 0xf7, 0xbe, 0x20, 0xe2, 0x8d, 0x3e,
  0x6a, 0x14, 0xfd, 0xbe, 0x1e, 0x92, 0x86, 0x3e, 0x99, 0xce, 0x84, 0x3e,
  0xd7, 0xce, 0x81, 0x3e, 0x56, 0x22, 0x47, 0x3d, 0x95, 0x51, 0x32, 0x3d,
  0xdd, 0xc7, 0x9b, 0xbe, 0xda, 0x6f, 0x90, 0x3c, 0x3f, 0x4b, 0xe9, 0xbe,
  0x4b, 0xde, 0xe0, 0x3e, 0x4b, 0x28, 0x1f, 0x3e, 0xa0, 0x41, 0xef, 0xbd,
  0x60, 0x04, 0x11, 0x3f, 0x42, 0x2f, 0x34, 0x3d, 0xf3, 0x24, 0x9b, 0x3d,
  0x0e, 0x0e, 0x24, 0x3f, 0x8f, 0xcc, 0x3d, 0x3e, 0x37, 0x52, 0xb5, 0xbe,
  0x5c, 0x86, 0xa0, 0x3e, 0x17, 0x31, 0xdb, 0x3e, 0x6f, 0xa0, 0x9e, 0x3d,
  0x7a, 0x68, 0x6e, 0xbd, 0x9e, 0x89, 0xb8, 0xbe, 0x32, 0x11, 0xec, 0x3e,
  0x6d, 0x8b, 0x91, 0x3e, 0xaa, 0x9a, 0x08, 0x3e, 0x16, 0x16, 0x29, 0x3e,
  0xb1, 0x17, 0xa4, 0xbe, 0x94, 0x80, 0xf0, 0x3e, 0x87, 0xad, 0xaa, 0xbd,
  0x1a, 0x82, 0x1e, 0xbe, 0x9a, 0x83, 0xfb, 0xbe, 0xd1, 0x50, 0x05, 0x3e,
  0xdc, 0x96, 0xea, 0xbe, 0xcc, 0x82, 0x04, 0x3e, 0x08, 0x9d, 0x0a, 0x3e,
  0x29, 0x0c, 0x50, 0xbd, 0x5d, 0x1b, 0x38, 0xbe, 0xe9, 0x83, 0xb3, 0xbe,
  0xba, 0xd0, 0x02, 0x3f, 0xe9, 0xe0, 0x68, 0xbe, 0xbb, 0x10, 0x8d, 0x3e,
  0x4d, 0x39, 0x7a, 0xbe, 0x50, 0xa4, 0x52, 0x3e, 0xa1, 0x2f, 0x0d, 0xbd,
  0x9d, 0x1a, 0x13, 0x3f, 0x4b, 0xf6, 0x48, 0x3d, 0x03, 0xb2, 0x06, 0xbe,
  0xb5, 0x72, 0x72, 0x3d, 0x1a, 0x59, 0x85, 0xbd, 0xda, 0xf2, 0x0e, 0xbe,
  0x37, 0x29, 0xb6, 0xbc, 0xf3, 0x4e, 0x97, 0xbe, 0x8d, 0x62, 0xb3, 0x3e,
  0xd3, 0xfc, 0xdc, 0xbe, 0x3d, 0x99, 0x05, 0x3e, 0xed, 0x7e, 0x7c, 0x3d,
  0xaf, 0x22, 0x8b, 0xbe, 0x09, 0x24, 0x0c, 0xbf, 0x5a, 0x77, 0xd8, 0x3d,
  0x69, 0xd8, 0xa0, 0x3c, 0x6b, 0x9b, 0x4e, 0x3e, 0xf3, 0xc8, 0x43, 0x3e,
  0x80, 0x47, 0xce, 0x3e, 0x63, 0x3d, 0xb0, 0xbe, 0x09, 0x4d, 0x9b, 0x3e,
  0x32, 0xda, 0xca, 0xbe, 0xaf, 0x97, 0xc2, 0xbe, 0xc1, 0x86, 0xab, 0x3e,
  0xa6, 0x10, 0x26, 0x3f, 0xcd, 0x64, 0xd1, 0xbd, 0x2e, 0x63, 0x46, 0xbe,
  0x00, 0x5a, 0x34, 0x3d, 0xe0, 0x73, 0xc8, 0x3e, 0xc9, 0x97, 0xe5, 0x3d,
  0x36, 0x29, 0x24, 0xbc, 0xd8, 0x30, 0xba, 0x3e, 0xc0, 0x91, 0xde, 0xbc,
  0xe9, 0xdd, 0xbb, 0x3e, 0xa7, 0xb8, 0x6d, 0xbe, 0x07, 0x16, 0x8e, 0xbe,
  0xc2, 0xcb, 0x8c, 0x3e, 0xa0, 0x73, 0xac, 0x3d, 0x7b, 0x1b, 0x30, 0xbe,
  0x95, 0x7f, 0x8b, 0x3e, 0x73, 0x6e, 0x9a, 0xbe, 0x54, 0xb3, 0x96, 0xbe,
  0xc3, 0x09, 0x0b, 0x3f, 0x42, 0x68, 0x91, 0x3d, 0x44, 0xaa, 0xfc, 0xbd,
  0x5a, 0x6b, 0x90, 0x3c, 0x7b, 0xf1, 0xa3, 0x3d, 0xf1, 0xcc, 0x85, 0xbe,
  0xee, 0xfd, 0xff, 0xff, 0x04, 0x00, 0x00, 0x00, 0x80, 0x01, 0x00, 0x00,
  0x82, 0x32, 0xcd, 0xbe, 0x17, 0xd8, 0x71, 0xbe, 0x59, 0xf2, 0x14, 0x3e,
  0xf7, 0x6b, 0x87, 0xbe, 0x56, 0x63, 0x06, 0x3e, 0xcf, 0x9b, 0x75, 0xbd,
  0x5f, 0xd4, 0x71, 0x3e, 0xcf, 0x43, 0x64, 0x3e, 0x8b, 0xee, 0x03, 0xbf,
  0x97, 0xc9, 0x45, 0x3c, 0xe4, 0x7a, 0xc6, 0xbe, 0xfa, 0x2d, 0x35, 0xbf,
  0xc8, 0xfd, 0x53, 0x3e, 0xd9, 0x69, 0xad, 0xbe, 0xe8, 0x57, 0xb9, 0x3e,
  0xf7, 0xd9, 0x5c, 0xbe, 0xb3, 0xcd, 0x1a, 0x3e, 0x95, 0x5a, 0xde, 0xbe,
  0x9c, 0x02, 0x0a, 0xbf, 0x9e, 0xdf, 0x0a, 0x3e, 0x10, 0xf8, 0x36, 0xbe,
  0x54, 0xa9, 0xcd, 0x3e, 0x26, 0x14, 0xc2, 0xbe, 0xfd, 0xc6, 0xd9, 0xbe,
  0x31, 0x39, 0x10, 0x3b, 0x96, 0x71, 0xf9, 0x3d, 0x2e, 0xea, 0x28, 0x3e,
  0xf5, 0x20, 0xe0, 0xbe, 0xa2, 0x04, 0x42, 0xbe, 0x80, 0x1b, 0x66, 0x3e,
  0x4c, 0xf6, 0x5b, 0xbd, 0x34, 0x1c, 0xe7, 0xbe, 0x06, 0x21, 0x06, 0xbf,
  0xd2, 0xd7, 0x29, 0x3e, 0xe4, 0x70, 0xae, 0xbe, 0xaa, 0xba, 0xa6, 0xbd,
  0x21, 0x5d, 0x58, 0xbe, 0x91, 0x6b, 0x19, 0xbe, 0x71, 0x50, 0x70, 0x3e,
  0x7d, 0x7d, 0x6f, 0xbe, 0x9e, 0x4f, 0xcc, 0x3e, 0xab, 0x65, 0xa8, 0xbe,
  0x89, 0xf6, 0x1a, 0xbf, 0xe7, 0x10, 0x38, 0xbf, 0xd3, 0xca, 0x1d, 0x3d,
  0xc5, 0xa2, 0x9e, 0x3e, 0x2e, 0xca, 0xf0, 0xbd, 0xfd, 0x00, 0x84, 0x3c,
  0x8d, 0x39, 0xad, 0xbd, 0xbc, 0x8a, 0x21, 0x3f, 0x9d, 0x70, 0x0e, 0x3e,
  0xac, 0x9c, 0x5c, 0x3e, 0xce, 0xfc, 0x2e, 0xbe, 0x7d, 0x2a, 0xab, 0xbe,
  0x48, 0xad, 0xd2, 0x3d, 0xec, 0x12, 0x87, 0xbe, 0xb0, 0xf1, 0x17, 0x3e,
  0xb0, 0xfd, 0x80, 0xbe, 0x40, 0xaf, 0x02, 0xbf, 0x2c, 0x09, 0x61, 0xbd,
  0x93, 0xb8, 0x16, 0x3e, 0x75, 0x77, 0x2d, 0x3e, 0x7e, 0x3b, 0x7e, 0x3d,
  0xfc, 0x6e, 0x11, 0x3e, 0xa4, 0x01, 0x93, 0x3b, 0xc9, 0xb8, 0x20, 0x3f,
  0xd8, 0x93, 0x36, 0xbf, 0x77, 0x41, 0x12, 0x3f, 0xab, 0x24, 0xf3, 0xbe,
  0x9a, 0xab, 0xb7, 0xbe, 0xb2, 0xeb, 0x89, 0xbe, 0x44, 0xd3, 0x9c, 0xbe,
  0xf0, 0x0c, 0x1c, 0x3f, 0x1e, 0xcd, 0xcd, 0xbe, 0x85, 0x9f, 0x2d, 0x3f,
  0x04, 0xcf, 0x26, 0x3f, 0x92, 0x4e, 0x2b, 0xbe, 0x26, 0x64, 0x78, 0x3e,
  0xc4, 0x1e, 0xb2, 0xbe, 0x19, 0xe7, 0xf1, 0xbc, 0x65, 0x6f, 0x04, 0xbf,
  0x9a, 0xca, 0xb2, 0x3e, 0x59, 0x1b, 0x69, 0x3e, 0x99, 0x7b, 0x8b, 0xbd,
  0x51, 0x44, 0xc0, 0x3e, 0x42, 0x4c, 0x38, 0x3e, 0x1b, 0x44, 0x87, 0xbe,
  0x08, 0xea, 0x16, 0x3f, 0xa4, 0x7c, 0x08, 0xbf, 0x8e, 0x41, 0xa4, 0x3d,
  0x3e, 0x71, 0xb6, 0x3e, 0xdf, 0x92, 0x16, 0xbe, 0x05, 0x88, 0xb9, 0x3c,
  0xb8, 0xa8, 0x4f, 0x3e, 0x5b, 0xf5, 0x8d, 0xbe, 0x7b, 0xdb, 0x34, 0x3f,
  0xc0, 0xfa, 0xff, 0xff, 0xc4, 0xfa, 0xff, 0xff, 0x0f, 0x00, 0x00, 0x00,
  0x4d, 0x4c, 0x49, 0x52, 0x20, 0x43, 0x6f, 0x6e, 0x76, 0x65, 0x72, 0x74,
  0x65, 0x64, 0x2e, 0x00, 0x01, 0x00, 0x00, 0x00, 0x14, 0x00, 0x00, 0x00,
  0x00, 0x00, 0x0e, 0x00, 0x18, 0x00, 0x14, 0x00, 0x10, 0x00, 0x0c, 0x00,
  0x08, 0x00, 0x04, 0x00, 0x0e, 0x00, 0x00, 0x00, 0x14, 0x00, 0x00, 0x00,
  0x1c, 0x00, 0x00, 0x00, 0x24, 0x01, 0x00, 0x00, 0x28, 0x01, 0x00, 0x00,
  0x2c, 0x01, 0x00, 0x00, 0x04, 0x00, 0x00, 0x00, 0x6d, 0x61, 0x69, 0x6e,
  0x00, 0x00, 0x00, 0x00, 0x04, 0x00, 0x00, 0x00, 0xdc, 0x00, 0x00, 0x00,
  0x88, 0x00, 0x00, 0x00, 0x40, 0x00, 0x00, 0x00, 0x04, 0x00, 0x00, 0x00,
  0x92, 0xff, 0xff, 0xff, 0x1c, 0x00, 0x00, 0x00, 0x00, 0x00, 0x00, 0x09,
  0x1c, 0x00, 0x00, 0x00, 0x20, 0x00, 0x00, 0x00, 0x02, 0x00, 0x00, 0x00,
  0x00, 0x00, 0x06, 0x00, 0x08, 0x00, 0x04, 0x00, 0x06, 0x00, 0x00, 0x00,
  0x00, 0x00, 0x80, 0x3f, 0x01, 0x00, 0x00, 0x00, 0x09, 0x00, 0x00, 0x00,
  0x01, 0x00, 0x00, 0x00, 0x08, 0x00, 0x00, 0x00, 0xca, 0xff, 0xff, 0xff,
  0x14, 0x00, 0x00, 0x00, 0x00, 0x00, 0x00, 0x08, 0x10, 0x00, 0x00, 0x00,
  0x14, 0x00, 0x00, 0x00, 0x01, 0x00, 0x00, 0x00, 0x7c, 0xfb, 0xff, 0xff,
  0x01, 0x00, 0x00, 0x00, 0x08, 0x00, 0x00, 0x00, 0x03, 0x00, 0x00, 0x00,
  0x07, 0x00, 0x00, 0x00, 0x01, 0x00, 0x00, 0x00, 0x03, 0x00, 0x00, 0x00,
  0x00, 0x00, 0x0e, 0x00, 0x1a, 0x00, 0x14, 0x00, 0x10, 0x00, 0x0c, 0x00,
  0x0b, 0x00, 0x04, 0x00, 0x0e, 0x00, 0x00, 0x00, 0x1c, 0x00, 0x00, 0x00,
  0x00, 0x00, 0x00, 0x08, 0x1c, 0x00, 0x00, 0x00, 0x20, 0x00, 0x00, 0x00,
  0x01, 0x00, 0x00, 0x00, 0x00, 0x00, 0x06, 0x00, 0x08, 0x00, 0x07, 0x00,
  0x06, 0x00, 0x00, 0x00, 0x00, 0x00, 0x00, 0x01, 0x01, 0x00, 0x00, 0x00,
  0x07, 0x00, 0x00, 0x00, 0x03, 0x00, 0x00, 0x00, 0x06, 0x00, 0x00, 0x00,
  0x02, 0x00, 0x00, 0x00, 0x04, 0x00, 0x00, 0x00, 0x00, 0x00, 0x0e, 0x00,
  0x14, 0x00, 0x00, 0x00, 0x10, 0x00, 0x0c, 0x00, 0x0b, 0x00, 0x04, 0x00,
  0x0e, 0x00, 0x00, 0x00, 0x10, 0x00, 0x00, 0x00, 0x00, 0x00, 0x00, 0x1b,
  0x0c, 0x00, 0x00, 0x00, 0x10, 0x00, 0x00, 0x00, 0x0c, 0xfc, 0xff, 0xff,
  0x01, 0x00, 0x00, 0x00, 0x06, 0x00, 0x00, 0x00, 0x02, 0x00, 0x00, 0x00,
  0x00, 0x00, 0x00, 0x00, 0x05, 0x00, 0x00, 0x00, 0x01, 0x00, 0x00, 0x00,
  0x09, 0x00, 0x00, 0x00, 0x01, 0x00, 0x00, 0x00, 0x00, 0x00, 0x00, 0x00,
  0x0a, 0x00, 0x00, 0x00, 0x9c, 0x03, 0x00, 0x00, 0x44, 0x03, 0x00, 0x00,
  0xec, 0x02, 0x00, 0x00, 0xb0, 0x02, 0x00, 0x00, 0x74, 0x02, 0x00, 0x00,
  0x0c, 0x02, 0x00, 0x00, 0x88, 0x01, 0x00, 0x00, 0xe4, 0x00, 0x00, 0x00,
  0x60, 0x00, 0x00, 0x00, 0x04, 0x00, 0x00, 0x00, 0xa2, 0xfc, 0xff, 0xff,
  0x00, 0x00, 0x00, 0x01, 0x14, 0x00, 0x00, 0x00, 0x1c, 0x00, 0x00, 0x00,
  0x1c, 0x00, 0x00, 0x00, 0x0a, 0x00, 0x00, 0x00, 0x34, 0x00, 0x00, 0x00,
  0x02, 0x00, 0x00, 0x00, 0xff, 0xff, 0xff, 0xff, 0x03, 0x00, 0x00, 0x00,
  0x88, 0xfc, 0xff, 0xff, 0x1b, 0x00, 0x00, 0x00, 0x53, 0x74, 0x61, 0x74,
  0x65, 0x66, 0x75, 0x6c, 0x50, 0x61, 0x72, 0x74, 0x69, 0x74, 0x69, 0x6f,
  0x6e, 0x65, 0x64, 0x43, 0x61, 0x6c, 0x6c, 0x5f, 0x31, 0x3a, 0x30, 0x00,
  0x02, 0x00, 0x00, 0x00, 0x01, 0x00, 0x00, 0x00, 0x03, 0x00, 0x00, 0x00,
  0xfa, 0xfc, 0xff, 0xff, 0x00, 0x00, 0x00, 0x01, 0x14, 0x00, 0x00, 0x00,
  0x1c, 0x00, 0x00, 0x00, 0x1c, 0x00, 0x00, 0x00, 0x09, 0x00, 0x00, 0x00,
  0x5c, 0x00, 0x00, 0x00, 0x02, 0x00, 0x00, 0x00, 0xff, 0xff, 0xff, 0xff,
  0x03, 0x00, 0x00, 0x00, 0xe0, 0xfc, 0xff, 0xff, 0x42, 0x00, 0x00, 0x00,
  0x73, 0x65, 0x71, 0x75, 0x65, 0x6e, 0x74, 0x69, 0x61, 0x6c, 0x5f, 0x35,
  0x5f, 0x31, 0x2f, 0x64, 0x65, 0x6e, 0x73, 0x65, 0x5f, 0x31, 0x31, 0x5f,
  0x31, 0x2f, 0x4d, 0x61, 0x74, 0x4d, 0x75, 0x6c, 0x3b, 0x73, 0x65, 0x71,
  0x75, 0x65, 0x6e, 0x74, 0x69, 0x61, 0x6c, 0x5f, 0x35, 0x5f, 0x31, 0x2f,
  0x64, 0x65, 0x6e, 0x73, 0x65, 0x5f, 0x31, 0x31, 0x5f, 0x31, 0x2f, 0x42,
  0x69, 0x61, 0x73, 0x41, 0x64, 0x64, 0x00, 0x00, 0x02, 0x00, 0x00, 0x00,
  0x01, 0x00, 0x00, 0x00, 0x03, 0x00, 0x00, 0x00, 0x7a, 0xfd, 0xff, 0xff,
  0x00, 0x00, 0x00, 0x01, 0x14, 0x00, 0x00, 0x00, 0x1c, 0x00, 0x00, 0x00,
  0x1c, 0x00, 0x00, 0x00, 0x08, 0x00, 0x00, 0x00, 0x7c, 0x00, 0x00, 0x00,
  0x02, 0x00, 0x00, 0x00, 0xff, 0xff, 0xff, 0xff, 0x20, 0x00, 0x00, 0x00,
  0x60, 0xfd, 0xff, 0xff, 0x61, 0x00, 0x00, 0x00, 0x73, 0x65, 0x71, 0x75,
  0x65, 0x6e, 0x74, 0x69, 0x61, 0x6c, 0x5f, 0x35, 0x5f, 0x31, 0x2f, 0x64,
  0x65, 0x6e, 0x73, 0x65, 0x5f, 0x31, 0x30, 0x5f, 0x31, 0x2f, 0x4d, 0x61,
  0x74, 0x4d, 0x75, 0x6c, 0x3b, 0x73, 0x65, 0x71, 0x75, 0x65, 0x6e, 0x74,
  0x69, 0x61, 0x6c, 0x5f, 0x35, 0x5f, 0x31, 0x2f, 0x64, 0x65, 0x6e, 0x73,
  0x65, 0x5f, 0x31, 0x30, 0x5f, 0x31, 0x2f, 0x52, 0x65, 0x6c, 0x75, 0x3b,
  0x73, 0x65, 0x71, 0x75, 0x65, 0x6e, 0x74, 0x69, 0x61, 0x6c, 0x5f, 0x35,
  0x5f, 0x31, 0x2f, 0x64, 0x65, 0x6e, 0x73, 0x65, 0x5f, 0x31, 0x30, 0x5f,
  0x31, 0x2f, 0x42, 0x69, 0x61, 0x73, 0x41, 0x64, 0x64, 0x00, 0x00, 0x00,
  0x02, 0x00, 0x00, 0x00, 0x01, 0x00, 0x00, 0x00, 0x20, 0x00, 0x00, 0x00,
  0x1a, 0xfe, 0xff, 0xff, 0x00, 0x00, 0x00, 0x01, 0x14, 0x00, 0x00, 0x00,
  0x1c, 0x00, 0x00, 0x00, 0x1c, 0x00, 0x00, 0x00, 0x07, 0x00, 0x00, 0x00,
  0x44, 0x00, 0x00, 0x00, 0x02, 0x00, 0x00, 0x00, 0xff, 0xff, 0xff, 0xff,
  0x03, 0x00, 0x00, 0x00, 0x00, 0xfe, 0xff, 0xff, 0x29, 0x00, 0x00, 0x00,
  0x73, 0x65, 0x71, 0x75, 0x65, 0x6e, 0x74, 0x69, 0x61, 0x6c, 0x5f, 0x35,
  0x5f, 0x31, 0x2f, 0x67, 0x6c, 0x6f, 0x62, 0x61, 0x6c, 0x5f, 0x6d, 0x61,
  0x78, 0x5f, 0x70, 0x6f, 0x6f, 0x6c, 0x69, 0x6e, 0x67, 0x31, 0x64, 0x5f,
  0x31, 0x2f, 0x4d, 0x61, 0x78, 0x00, 0x00, 0x00, 0x02, 0x00, 0x00, 0x00,
  0x01, 0x00, 0x00, 0x00, 0x03, 0x00, 0x00, 0x00, 0x00, 0x00, 0x16, 0x00,
  0x1c, 0x00, 0x18, 0x00, 0x17, 0x00, 0x10, 0x00, 0x0c, 0x00, 0x08, 0x00,
  0x00, 0x00, 0x00, 0x00, 0x00, 0x00, 0x07, 0x00, 0x16, 0x00, 0x00, 0x00,
  0x00, 0x00, 0x00, 0x01, 0x14, 0x00, 0x00, 0x00, 0x14, 0x00, 0x00, 0x00,
  0x06, 0x00, 0x00, 0x00, 0x00, 0x00, 0x00, 0x02, 0x48, 0x00, 0x00, 0x00,
  0x74, 0xfe, 0xff, 0xff, 0x3b, 0x00, 0x00, 0x00, 0x73, 0x65, 0x71, 0x75,
  0x65, 0x6e, 0x74, 0x69, 0x61, 0x6c, 0x5f, 0x35, 0x5f, 0x31, 0x2f, 0x67,
  0x6c, 0x6f, 0x62, 0x61, 0x6c, 0x5f, 0x6d, 0x61, 0x78, 0x5f, 0x70, 0x6f,
  0x6f, 0x6c, 0x69, 0x6e, 0x67, 0x31, 0x64, 0x5f, 0x31, 0x2f, 0x4d, 0x61,
  0x78, 0x2f, 0x72, 0x65, 0x64, 0x75, 0x63, 0x74, 0x69, 0x6f, 0x6e, 0x5f,
  0x69, 0x6e, 0x64, 0x69, 0x63, 0x65, 0x73, 0x00, 0x00, 0x00, 0x00, 0x00,
  0x52, 0xff, 0xff, 0xff, 0x00, 0x00, 0x00, 0x01, 0x10, 0x00, 0x00, 0x00,
  0x10, 0x00, 0x00, 0x00, 0x05, 0x00, 0x00, 0x00, 0x1c, 0x00, 0x00, 0x00,
  0xd4, 0xfe, 0xff, 0xff, 0x0f, 0x00, 0x00, 0x00, 0x61, 0x72, 0x69, 0x74,
  0x68, 0x2e, 0x63, 0x6f, 0x6e, 0x73, 0x74, 0x61, 0x6e, 0x74, 0x33, 0x00,
  0x01, 0x00, 0x00, 0x00, 0x20, 0x00, 0x00, 0x00, 0x8a, 0xff, 0xff, 0xff,
  0x00, 0x00, 0x00, 0x01, 0x10, 0x00, 0x00, 0x00, 0x10, 0x00, 0x00, 0x00,
  0x04, 0x00, 0x00, 0x00, 0x1c, 0x00, 0x00, 0x00, 0x0c, 0xff, 0xff, 0xff,
  0x0f, 0x00, 0x00, 0x00, 0x61, 0x72, 0x69, 0x74, 0x68, 0x2e, 0x63, 0x6f,
  0x6e, 0x73, 0x74, 0x61, 0x6e, 0x74, 0x32, 0x00, 0x01, 0x00, 0x00, 0x00,
  0x03, 0x00, 0x00, 0x00, 0xc2, 0xff, 0xff, 0xff, 0x00, 0x00, 0x00, 0x01,
  0x10, 0x00, 0x00, 0x00, 0x10, 0x00, 0x00, 0x00, 0x03, 0x00, 0x00, 0x00,
  0x1c, 0x00, 0x00, 0x00, 0x44, 0xff, 0xff, 0xff, 0x0f, 0x00, 0x00, 0x00,
  0x61, 0x72, 0x69, 0x74, 0x68, 0x2e, 0x63, 0x6f, 0x6e, 0x73, 0x74, 0x61,
  0x6e, 0x74, 0x31, 0x00, 0x02, 0x00, 0x00, 0x00, 0x20, 0x00, 0x00, 0x00,
  0x03, 0x00, 0x00, 0x00, 0x00, 0x00, 0x16, 0x00, 0x18, 0x00, 0x14, 0x00,
  0x00, 0x00, 0x10, 0x00, 0x0c, 0x00, 0x08, 0x00, 0x00, 0x00, 0x00, 0x00,
  0x00, 0x00, 0x07, 0x00, 0x16, 0x00, 0x00, 0x00, 0x00, 0x00, 0x00, 0x01,
  0x10, 0x00, 0x00, 0x00, 0x10, 0x00, 0x00, 0x00, 0x02, 0x00, 0x00, 0x00,
  0x1c, 0x00, 0x00, 0x00, 0x98, 0xff, 0xff, 0xff, 0x0e, 0x00, 0x00, 0x00,
  0x61, 0x72, 0x69, 0x74, 0x68, 0x2e, 0x63, 0x6f, 0x6e, 0x73, 0x74, 0x61,
  0x6e, 0x74, 0x00, 0x00, 0x02, 0x00, 0x00, 0x00, 0x03, 0x00, 0x00, 0x00,
  0x20, 0x00, 0x00, 0x00, 0x00, 0x00, 0x16, 0x00, 0x1c, 0x00, 0x18, 0x00,
  0x00, 0x00, 0x14, 0x00, 0x10, 0x00, 0x0c, 0x00, 0x00, 0x00, 0x00, 0x00,
  0x08, 0x00, 0x07, 0x00, 0x16, 0x00, 0x00, 0x00, 0x00, 0x00, 0x00, 0x01,
  0x14, 0x00, 0x00, 0x00, 0x24, 0x00, 0x00, 0x00, 0x24, 0x00, 0x00, 0x00,
  0x01, 0x00, 0x00, 0x00, 0x38, 0x00, 0x00, 0x00, 0x03, 0x00, 0x00, 0x00,
  0xff, 0xff, 0xff, 0xff, 0x7d, 0x00, 0x00, 0x00, 0x03, 0x00, 0x00, 0x00,
  0x04, 0x00, 0x04, 0x00, 0x04, 0x00, 0x00, 0x00, 0x17, 0x00, 0x00, 0x00,
  0x73, 0x65, 0x72, 0x76, 0x69, 0x6e, 0x67, 0x5f, 0x64, 0x65, 0x66, 0x61,
  0x75, 0x6c, 0x74, 0x5f, 0x69, 0x6e, 0x70, 0x75, 0x74, 0x3a, 0x30, 0x00,
  0x03, 0x00, 0x00, 0x00, 0x01, 0x00, 0x00, 0x00, 0x7d, 0x00, 0x00, 0x00,
  0x03, 0x00, 0x00, 0x00, 0x03, 0x00, 0x00, 0x00, 0x30, 0x00, 0x00, 0x00,
  0x14, 0x00, 0x00, 0x00, 0x04, 0x00, 0x00, 0x00, 0xe8, 0xff, 0xff, 0xff,
  0x19, 0x00, 0x00, 0x00, 0x00, 0x00, 0x00, 0x19, 0xf4, 0xff, 0xff, 0xff,
  0x09, 0x00, 0x00, 0x00, 0x00, 0x00, 0x00, 0x09, 0x0c, 0x00, 0x0c, 0x00,
  0x0b, 0x00, 0x00, 0x00, 0x00, 0x00, 0x04, 0x00, 0x0c, 0x00, 0x00, 0x00,
  0x52, 0x00, 0x00, 0x00, 0x00, 0x00, 0x00, 0x52
};
